#include "model.h" 

alignas(16) const unsigned char __model_tflite_rain_model_tflite[] =  {
  0x1c, 0x00, 0x00, 0x00, 0x54, 0x46, 0x4c, 0x33, 0x14, 0x00, 0x20, 0x00,
  0x1c, 0x00, 0x18, 0x00, 0x14, 0x00, 0x10, 0x00, 0x0c, 0x00, 0x00, 0x00,
  0x08, 0x00, 0x04, 0x00, 0x14, 0x00, 0x00, 0x00, 0x1c, 0x00, 0x00, 0x00,
  0x88, 0x00, 0x00, 0x00, 0xe0, 0x00, 0x00, 0x00, 0xc4, 0x06, 0x00, 0x00,
  0xd4, 0x06, 0x00, 0x00, 0x7c, 0x12, 0x00, 0x00, 0x03, 0x00, 0x00, 0x00,
  0x01, 0x00, 0x00, 0x00, 0x04, 0x00, 0x00, 0x00, 0xfa, 0xf7, 0xff, 0xff,
  0x0c, 0x00, 0x00, 0x00, 0x1c, 0x00, 0x00, 0x00, 0x38, 0x00, 0x00, 0x00,
  0x0f, 0x00, 0x00, 0x00, 0x73, 0x65, 0x72, 0x76, 0x69, 0x6e, 0x67, 0x5f,
  0x64, 0x65, 0x66, 0x61, 0x75, 0x6c, 0x74, 0x00, 0x01, 0x00, 0x00, 0x00,
  0x04, 0x00, 0x00, 0x00, 0x94, 0xff, 0xff, 0xff, 0x17, 0x00, 0x00, 0x00,
  0x04, 0x00, 0x00, 0x00, 0x07, 0x00, 0x00, 0x00, 0x72, 0x65, 0x73, 0x68,
  0x61, 0x70, 0x65, 0x00, 0x01, 0x00, 0x00, 0x00, 0x04, 0x00, 0x00, 0x00,
  0xea, 0xf8, 0xff, 0xff, 0x04, 0x00, 0x00, 0x00, 0x0d, 0x00, 0x00, 0x00,
  0x66, 0x6c, 0x61, 0x74, 0x74, 0x65, 0x6e, 0x5f, 0x69, 0x6e, 0x70, 0x75,
  0x74, 0x00, 0x00, 0x00, 0x02, 0x00, 0x00, 0x00, 0x34, 0x00, 0x00, 0x00,
  0x04, 0x00, 0x00, 0x00, 0xdc, 0xff, 0xff, 0xff, 0x1a, 0x00, 0x00, 0x00,
  0x04, 0x00, 0x00, 0x00, 0x13, 0x00, 0x00, 0x00, 0x43, 0x4f, 0x4e, 0x56,
  0x45, 0x52, 0x53, 0x49, 0x4f, 0x4e, 0x5f, 0x4d, 0x45, 0x54, 0x41, 0x44,
  0x41, 0x54, 0x41, 0x00, 0x08, 0x00, 0x0c, 0x00, 0x08, 0x00, 0x04, 0x00,
  0x08, 0x00, 0x00, 0x00, 0x19, 0x00, 0x00, 0x00, 0x04, 0x00, 0x00, 0x00,
  0x13, 0x00, 0x00, 0x00, 0x6d, 0x69, 0x6e, 0x5f, 0x72, 0x75, 0x6e, 0x74,
  0x69, 0x6d, 0x65, 0x5f, 0x76, 0x65, 0x72, 0x73, 0x69, 0x6f, 0x6e, 0x00,
  0x1b, 0x00, 0x00, 0x00, 0xe0, 0x05, 0x00, 0x00, 0xd8, 0x05, 0x00, 0x00,
  0x80, 0x05, 0x00, 0x00, 0x6c, 0x05, 0x00, 0x00, 0x4c, 0x05, 0x00, 0x00,
  0x1c, 0x05, 0x00, 0x00, 0x08, 0x05, 0x00, 0x00, 0xf4, 0x04, 0x00, 0x00,
  0xe0, 0x04, 0x00, 0x00, 0xd8, 0x04, 0x00, 0x00, 0xc0, 0x04, 0x00, 0x00,
  0xd8, 0x03, 0x00, 0x00, 0x88, 0x01, 0x00, 0x00, 0xf8, 0x00, 0x00, 0x00,
  0xd8, 0x00, 0x00, 0x00, 0xd0, 0x00, 0x00, 0x00, 0xc8, 0x00, 0x00, 0x00,
  0xc0, 0x00, 0x00, 0x00, 0xb8, 0x00, 0x00, 0x00, 0xb0, 0x00, 0x00, 0x00,
  0xa8, 0x00, 0x00, 0x00, 0xa0, 0x00, 0x00, 0x00, 0x98, 0x00, 0x00, 0x00,
  0x90, 0x00, 0x00, 0x00, 0x88, 0x00, 0x00, 0x00, 0x68, 0x00, 0x00, 0x00,
  0x04, 0x00, 0x00, 0x00, 0xd2, 0xf9, 0xff, 0xff, 0x04, 0x00, 0x00, 0x00,
  0x54, 0x00, 0x00, 0x00, 0x0c, 0x00, 0x00, 0x00, 0x08, 0x00, 0x0e, 0x00,
  0x08, 0x00, 0x04, 0x00, 0x08, 0x00, 0x00, 0x00, 0x10, 0x00, 0x00, 0x00,
  0x24, 0x00, 0x00, 0x00, 0x00, 0x00, 0x06, 0x00, 0x08, 0x00, 0x04, 0x00,
  0x06, 0x00, 0x00, 0x00, 0x04, 0x00, 0x00, 0x00, 0x00, 0x00, 0x00, 0x00,
  0x00, 0x00, 0x0a, 0x00, 0x10, 0x00, 0x0c, 0x00, 0x08, 0x00, 0x04, 0x00,
  0x0a, 0x00, 0x00, 0x00, 0x01, 0x00, 0x00, 0x00, 0x02, 0x00, 0x00, 0x00,
  0x04, 0x00, 0x00, 0x00, 0x06, 0x00, 0x00, 0x00, 0x32, 0x2e, 0x31, 0x35,
  0x2e, 0x30, 0x00, 0x00, 0x32, 0xfa, 0xff, 0xff, 0x04, 0x00, 0x00, 0x00,
  0x10, 0x00, 0x00, 0x00, 0x31, 0x2e, 0x31, 0x34, 0x2e, 0x30, 0x00, 0x00,
  0x00, 0x00, 0x00, 0x00, 0x00, 0x00, 0x00, 0x00, 0x80, 0xef, 0xff, 0xff,
  0x84, 0xef, 0xff, 0xff, 0x88, 0xef, 0xff, 0xff, 0x8c, 0xef, 0xff, 0xff,
  0x90, 0xef, 0xff, 0xff, 0x94, 0xef, 0xff, 0xff, 0x98, 0xef, 0xff, 0xff,
  0x9c, 0xef, 0xff, 0xff, 0xa0, 0xef, 0xff, 0xff, 0xa4, 0xef, 0xff, 0xff,
  0x76, 0xfa, 0xff, 0xff, 0x04, 0x00, 0x00, 0x00, 0x10, 0x00, 0x00, 0x00,
  0xf9, 0x22, 0x26, 0xbe, 0x8c, 0x7f, 0x8f, 0x3e, 0x26, 0xa2, 0x99, 0x3e,
  0xa5, 0xf6, 0x32, 0xbf, 0x92, 0xfa, 0xff, 0xff, 0x04, 0x00, 0x00, 0x00,
  0x80, 0x00, 0x00, 0x00, 0xab, 0x68, 0x68, 0xc0, 0xda, 0xb0, 0x7c, 0xc0,
  0x55, 0x56, 0x1b, 0x3e, 0x13, 0x81, 0x2d, 0x3e, 0x63, 0x24, 0x47, 0xc0,
  0x1b, 0x7a, 0x97, 0x3e, 0x42, 0x3c, 0x36, 0xc0, 0x0f, 0x2e, 0x80, 0x3e,
  0x66, 0x53, 0x3e, 0x3e, 0x55, 0x76, 0x3c, 0x3e, 0xb2, 0x5c, 0x9c, 0xbe,
  0x18, 0xe6, 0xd8, 0xbe, 0xe9, 0xba, 0xea, 0x3e, 0x1f, 0x21, 0x0a, 0xbf,
  0xe3, 0x3b, 0x81, 0x3e, 0xf6, 0x18, 0x1c, 0xbf, 0x5c, 0x61, 0x19, 0x3e,
  0x9f, 0x2a, 0x11, 0x3e, 0x64, 0x10, 0xa0, 0xbf, 0x93, 0x92, 0x19, 0xc0,
  0x58, 0x03, 0xce, 0x3e, 0xb2, 0x70, 0x72, 0xc0, 0xbe, 0x98, 0xd8, 0x3d,
  0x60, 0xc0, 0xd0, 0xc0, 0x1e, 0xf7, 0x95, 0xbc, 0x0f, 0x87, 0x59, 0xbe,
  0x39, 0x13, 0x36, 0xbf, 0x6b, 0x5f, 0xc7, 0xbe, 0x8b, 0xb3, 0x36, 0xbe,
  0x7f, 0x5a, 0x0c, 0xbd, 0x49, 0xc7, 0xe5, 0x3d, 0x8b, 0x4d, 0x62, 0xbe,
  0x1e, 0xfb, 0xff, 0xff, 0x04, 0x00, 0x00, 0x00, 0x40, 0x02, 0x00, 0x00,
  0x0f, 0xd3, 0x95, 0x3e, 0x87, 0xfa, 0xb7, 0xbd, 0x99, 0xbb, 0xc1, 0x3e,
  0x8f, 0x7d, 0xc9, 0xbe, 0xb5, 0x98, 0x0e, 0xbe, 0x87, 0x06, 0xe6, 0x3e,
  0x91, 0x61, 0x53, 0xc0, 0x82, 0xe3, 0xab, 0xc0, 0xec, 0x9a, 0xe0, 0x3e,
  0xfc, 0x3a, 0x19, 0xbe, 0xcf, 0x5b, 0x35, 0x3c, 0xca, 0xda, 0x58, 0xc0,
  0x6e, 0xb3, 0x84, 0xc0, 0x26, 0xe2, 0x5f, 0xc0, 0xd9, 0x9f, 0xa1, 0xc0,
  0xf0, 0x30, 0xc5, 0xbe, 0xe0, 0x7e, 0x83, 0xbf, 0x12, 0x3b, 0x6a, 0xc0,
  0x4b, 0xb9, 0x62, 0x3e, 0x6f, 0xe9, 0xf1, 0xbd, 0xb3, 0x3e, 0x0c, 0x3f,
  0xe2, 0x7a, 0x8f, 0x3e, 0x8b, 0x5f, 0xd2, 0xbd, 0xf5, 0x1a, 0x80, 0x3e,
  0x00, 0x79, 0x7f, 0xc0, 0xf3, 0x3c, 0x71, 0xc0, 0x87, 0x70, 0x10, 0x3e,
  0x03, 0x12, 0x82, 0x3d, 0x2f, 0xaf, 0xbd, 0x3e, 0xbc, 0x20, 0x2c, 0xc0,
  0x1f, 0xd3, 0xcf, 0xc0, 0xe0, 0x87, 0x53, 0xc0, 0x96, 0xf2, 0x44, 0xc0,
  0xea, 0x62, 0x89, 0xbf, 0xb6, 0x35, 0x03, 0xc0, 0xb2, 0xc1, 0x2f, 0xc0,
  0xee, 0xde, 0x71, 0xbe, 0xd2, 0x02, 0x20, 0x3f, 0x8b, 0xed, 0x07, 0xbf,
  0x10, 0x34, 0xc3, 0xbf, 0x4c, 0x41, 0x01, 0xbd, 0xeb, 0xf2, 0xcc, 0x3e,
  0x45, 0xeb, 0x88, 0x3f, 0x10, 0xd6, 0x5e, 0x3f, 0x0d, 0xca, 0x19, 0x3d,
  0xb7, 0xb1, 0xe6, 0x3b, 0xdc, 0xfa, 0x61, 0xbf, 0x47, 0xe1, 0xa0, 0x3e,
  0x77, 0xcd, 0xa7, 0x3f, 0x0a, 0xcf, 0xaf, 0x3e, 0xf3, 0x7c, 0xbd, 0x3e,
  0xa9, 0xf8, 0x36, 0x3e, 0xe0, 0x8b, 0x8d, 0x3e, 0x12, 0x3a, 0xa5, 0x3f,
  0x73, 0xd0, 0x4f, 0x3e, 0x13, 0xa6, 0x96, 0x3f, 0x63, 0x20, 0x2b, 0xbf,
  0xce, 0x92, 0x9b, 0xbf, 0x91, 0xed, 0x1f, 0xbf, 0xab, 0x13, 0x0b, 0x3f,
  0x26, 0x3d, 0x83, 0x3f, 0xfe, 0xb4, 0x5a, 0x3f, 0xf5, 0x65, 0x60, 0xbe,
  0x85, 0xed, 0x68, 0x3d, 0x91, 0x35, 0x02, 0x3f, 0x53, 0x37, 0x97, 0x3f,
  0x64, 0x45, 0x5b, 0x3f, 0xd1, 0xf9, 0x6f, 0x3f, 0x2e, 0x46, 0x37, 0x3f,
  0xfe, 0xb0, 0xa8, 0x3e, 0xa4, 0xd1, 0xdb, 0x3e, 0x45, 0x1d, 0xaf, 0x3f,
  0x9f, 0xdd, 0xdb, 0xbc, 0xb3, 0x2c, 0x13, 0xc0, 0xc9, 0x99, 0x61, 0x3e,
  0xdf, 0x66, 0xae, 0x3f, 0xf7, 0xc6, 0xa8, 0xbe, 0x2a, 0x10, 0x0b, 0xc0,
  0xfa, 0xe8, 0x8f, 0xc0, 0xd0, 0x2a, 0x70, 0xc0, 0x8d, 0xb0, 0x04, 0x3d,
  0x67, 0x3f, 0x9e, 0xbd, 0xce, 0xcf, 0xa0, 0xbe, 0x2a, 0x4e, 0x4f, 0xc0,
  0x14, 0x4d, 0x9a, 0xc0, 0xf0, 0xed, 0x85, 0xbd, 0x25, 0xf0, 0xbc, 0xbe,
  0xe0, 0xd3, 0x8b, 0xc0, 0x0b, 0x7d, 0x9f, 0xc0, 0xaf, 0x9f, 0xb0, 0xc0,
  0x30, 0x4e, 0x5c, 0xbf, 0x06, 0xe4, 0x52, 0x3f, 0xa4, 0x26, 0x50, 0xbf,
  0xf2, 0x03, 0xa8, 0xbf, 0x5e, 0xbc, 0x8e, 0xbe, 0x1c, 0x6d, 0x5c, 0x3f,
  0xaf, 0x03, 0x12, 0x3f, 0x58, 0x80, 0x48, 0x3f, 0x9c, 0xa9, 0xae, 0xbe,
  0xed, 0xd7, 0x7b, 0xbe, 0x0b, 0x3e, 0x39, 0xbf, 0xfe, 0x0e, 0xf4, 0xbe,
  0xea, 0x5f, 0xd4, 0x3e, 0x38, 0xc1, 0xc5, 0x3e, 0x3f, 0xf7, 0x4e, 0x3f,
  0x06, 0x9c, 0x8c, 0x3e, 0x51, 0x4f, 0xc1, 0x3d, 0x93, 0xa2, 0x08, 0x40,
  0x2a, 0x6f, 0x8a, 0x3e, 0x5d, 0x6d, 0xbb, 0x3e, 0xcd, 0xeb, 0xd5, 0x3e,
  0xcd, 0x3b, 0x38, 0xbc, 0x4e, 0x79, 0x2c, 0x3e, 0x4f, 0x1a, 0x39, 0x3e,
  0xba, 0x08, 0x5a, 0x3e, 0x0d, 0x32, 0xa7, 0xc0, 0x9e, 0xbc, 0x2a, 0xbe,
  0x94, 0x66, 0x82, 0xbe, 0xdf, 0xf6, 0x1c, 0x3e, 0xb4, 0x4b, 0x09, 0xc0,
  0xcb, 0x00, 0x3e, 0xbf, 0xd5, 0x98, 0x75, 0xc0, 0xe3, 0xc8, 0x73, 0xc0,
  0xd9, 0x14, 0x88, 0xbf, 0x67, 0xb2, 0x45, 0xc0, 0x84, 0x28, 0x4d, 0xc0,
  0x11, 0xbb, 0x95, 0xbe, 0x0f, 0x2b, 0xf1, 0x3e, 0x9a, 0x97, 0x16, 0xbe,
  0x6a, 0xff, 0xbc, 0xbf, 0x68, 0xb7, 0x31, 0x3e, 0x16, 0x67, 0x6d, 0x3f,
  0x58, 0xaf, 0x88, 0x3e, 0x00, 0x1e, 0x20, 0x3f, 0x50, 0xfb, 0x4d, 0xbe,
  0xde, 0x03, 0x95, 0xbd, 0xfa, 0xb4, 0x81, 0xbf, 0x6a, 0xb2, 0x6f, 0x3f,
  0xd3, 0x64, 0x95, 0x3e, 0x58, 0x23, 0x0b, 0x3f, 0xc2, 0x43, 0xba, 0x3e,
  0x5c, 0x4a, 0x99, 0x3e, 0xad, 0x2a, 0x4b, 0x3f, 0x28, 0x24, 0x10, 0x40,
  0x6a, 0xfd, 0xff, 0xff, 0x04, 0x00, 0x00, 0x00, 0xd8, 0x00, 0x00, 0x00,
  0x70, 0x16, 0x80, 0xbe, 0x49, 0x83, 0x58, 0x3f, 0xc5, 0xb9, 0x84, 0x3c,
  0x3c, 0xe7, 0x35, 0xbf, 0xef, 0x2b, 0x08, 0xbf, 0x28, 0xc4, 0x31, 0xbd,
  0xd6, 0xd3, 0x53, 0xbf, 0x81, 0xce, 0xe2, 0xbe, 0xe4, 0x66, 0x0c, 0xbf,
  0x76, 0x99, 0x83, 0xbf, 0x74, 0xe7, 0x92, 0x3e, 0x21, 0x46, 0xab, 0xbd,
  0xbe, 0x48, 0xdf, 0xbe, 0xcc, 0x8b, 0xb9, 0xbd, 0x73, 0x60, 0xe1, 0xbe,
  0xf6, 0x34, 0x3e, 0xbf, 0x42, 0x0b, 0x1f, 0xbf, 0x50, 0xc3, 0xe8, 0xbd,
  0x41, 0x89, 0x76, 0xbf, 0xde, 0xbb, 0x99, 0xbf, 0xfd, 0x0e, 0x09, 0xbf,
  0x8f, 0xc7, 0x85, 0x3f, 0xe8, 0xb8, 0x2d, 0xbf, 0x48, 0xb5, 0xb8, 0xbe,
  0x1d, 0xa4, 0x14, 0xbf, 0x9a, 0x94, 0x15, 0x3e, 0xa8, 0x63, 0x8a, 0xbe,
  0xae, 0xcf, 0xcd, 0x3d, 0x7c, 0x8e, 0x12, 0x3e, 0x91, 0x6f, 0x14, 0x3e,
  0x20, 0x57, 0x5d, 0x3d, 0x80, 0x8f, 0x54, 0x3f, 0x4e, 0x29, 0x8c, 0xbd,
  0xa5, 0x01, 0x90, 0x3d, 0x57, 0x5a, 0x9a, 0xbe, 0x9d, 0x3d, 0xdd, 0x3f,
  0x12, 0xf5, 0xda, 0xbc, 0xc9, 0x49, 0x7f, 0xbf, 0xa7, 0x52, 0x0a, 0x3f,
  0x8b, 0xe7, 0x0c, 0x3e, 0x16, 0xa4, 0x10, 0xbf, 0x30, 0xd9, 0xad, 0xbe,
  0x74, 0xb8, 0x8f, 0x3e, 0xdd, 0x65, 0x35, 0xbf, 0x11, 0x90, 0xcd, 0xbe,
  0xf7, 0x85, 0x55, 0x3f, 0x9f, 0x30, 0x7c, 0xbe, 0x3e, 0x2e, 0x87, 0xbd,
  0x40, 0x98, 0x90, 0x3f, 0x43, 0xd3, 0xcc, 0xbe, 0x85, 0x06, 0xd5, 0xbe,
  0x56, 0x73, 0x40, 0x3d, 0x2c, 0x38, 0x1e, 0xbe, 0xfe, 0x1f, 0xdb, 0x3f,
  0x4e, 0xfe, 0xff, 0xff, 0x04, 0x00, 0x00, 0x00, 0x08, 0x00, 0x00, 0x00,
  0xff, 0xff, 0xff, 0xff, 0x03, 0x00, 0x00, 0x00, 0x94, 0xf3, 0xff, 0xff,
  0x66, 0xfe, 0xff, 0xff, 0x04, 0x00, 0x00, 0x00, 0x04, 0x00, 0x00, 0x00,
  0xff, 0xff, 0xff, 0xff, 0x76, 0xfe, 0xff, 0xff, 0x04, 0x00, 0x00, 0x00,
  0x04, 0x00, 0x00, 0x00, 0x00, 0x00, 0x00, 0x00, 0x86, 0xfe, 0xff, 0xff,
  0x04, 0x00, 0x00, 0x00, 0x04, 0x00, 0x00, 0x00, 0x01, 0x00, 0x00, 0x00,
  0x96, 0xfe, 0xff, 0xff, 0x04, 0x00, 0x00, 0x00, 0x20, 0x00, 0x00, 0x00,
  0x7a, 0x0e, 0xa0, 0x3e, 0xa6, 0x82, 0x22, 0x3f, 0xed, 0x15, 0x4b, 0xbb,
  0xec, 0x83, 0xbf, 0xbe, 0x57, 0xa3, 0xf4, 0x3e, 0x04, 0xdb, 0x9a, 0x3c,
  0xcd, 0xcf, 0x06, 0x3f, 0x2f, 0x0e, 0x19, 0xbf, 0xc2, 0xfe, 0xff, 0xff,
  0x04, 0x00, 0x00, 0x00, 0x10, 0x00, 0x00, 0x00, 0x42, 0x72, 0xa0, 0x3e,
  0x48, 0xf5, 0x2f, 0x3f, 0xce, 0x73, 0x2a, 0x3f, 0xa6, 0x06, 0xb5, 0xbe,
  0xde, 0xfe, 0xff, 0xff, 0x04, 0x00, 0x00, 0x00, 0x04, 0x00, 0x00, 0x00,
  0x4c, 0x2f, 0x1a, 0xbe, 0xee, 0xfe, 0xff, 0xff, 0x04, 0x00, 0x00, 0x00,
  0x48, 0x00, 0x00, 0x00, 0x75, 0x5b, 0x1e, 0xbf, 0xfc, 0x51, 0x45, 0xbe,
  0x50, 0x17, 0x40, 0xbf, 0xbf, 0x6d, 0xb2, 0xbf, 0xe3, 0x35, 0xbd, 0xbe,
  0x27, 0xb4, 0x94, 0xbe, 0x40, 0xd3, 0x92, 0xbf, 0x27, 0xe7, 0x01, 0xbf,
  0x5d, 0x54, 0x5f, 0xbd, 0x6c, 0x76, 0xd8, 0xbe, 0x45, 0xb6, 0x65, 0xbf,
  0xc4, 0x95, 0xdc, 0xbe, 0x45, 0x9a, 0x6c, 0x3e, 0x4b, 0x07, 0x10, 0x3d,
  0x92, 0x71, 0xa9, 0xbe, 0x2a, 0x1c, 0xd7, 0xbd, 0x4e, 0xbf, 0xd8, 0xbe,
  0x86, 0x77, 0x35, 0xbf, 0x74, 0xf4, 0xff, 0xff, 0x78, 0xf4, 0xff, 0xff,
  0x0f, 0x00, 0x00, 0x00, 0x4d, 0x4c, 0x49, 0x52, 0x20, 0x43, 0x6f, 0x6e,
  0x76, 0x65, 0x72, 0x74, 0x65, 0x64, 0x2e, 0x00, 0x01, 0x00, 0x00, 0x00,
  0x14, 0x00, 0x00, 0x00, 0x00, 0x00, 0x0e, 0x00, 0x18, 0x00, 0x14, 0x00,
  0x10, 0x00, 0x0c, 0x00, 0x08, 0x00, 0x04, 0x00, 0x0e, 0x00, 0x00, 0x00,
  0x14, 0x00, 0x00, 0x00, 0x1c, 0x00, 0x00, 0x00, 0x6c, 0x02, 0x00, 0x00,
  0x70, 0x02, 0x00, 0x00, 0x74, 0x02, 0x00, 0x00, 0x04, 0x00, 0x00, 0x00,
  0x6d, 0x61, 0x69, 0x6e, 0x00, 0x00, 0x00, 0x00, 0x0a, 0x00, 0x00, 0x00,
  0x30, 0x02, 0x00, 0x00, 0xe0, 0x01, 0x00, 0x00, 0x94, 0x01, 0x00, 0x00,
  0x58, 0x01, 0x00, 0x00, 0x20, 0x01, 0x00, 0x00, 0xfc, 0x00, 0x00, 0x00,
  0xbc, 0x00, 0x00, 0x00, 0x6c, 0x00, 0x00, 0x00, 0x28, 0x00, 0x00, 0x00,
  0x04, 0x00, 0x00, 0x00, 0x02, 0xfe, 0xff, 0xff, 0x08, 0x00, 0x00, 0x00,
  0x0c, 0x00, 0x00, 0x00, 0x01, 0x00, 0x00, 0x00, 0x17, 0x00, 0x00, 0x00,
  0x02, 0x00, 0x00, 0x00, 0x13, 0x00, 0x00, 0x00, 0x16, 0x00, 0x00, 0x00,
  0x72, 0xfe, 0xff, 0xff, 0x1c, 0x00, 0x00, 0x00, 0x00, 0x00, 0x00, 0x3b,
  0x1c, 0x00, 0x00, 0x00, 0x20, 0x00, 0x00, 0x00, 0x05, 0x00, 0x00, 0x00,
  0x00, 0x00, 0x06, 0x00, 0x08, 0x00, 0x04, 0x00, 0x06, 0x00, 0x00, 0x00,
  0x03, 0x00, 0x00, 0x00, 0x01, 0x00, 0x00, 0x00, 0x16, 0x00, 0x00, 0x00,
  0x03, 0x00, 0x00, 0x00, 0x15, 0x00, 0x00, 0x00, 0x08, 0x00, 0x00, 0x00,
  0x07, 0x00, 0x00, 0x00, 0xb2, 0xfe, 0xff, 0xff, 0x24, 0x00, 0x00, 0x00,
  0x00, 0x00, 0x00, 0x20, 0x24, 0x00, 0x00, 0x00, 0x28, 0x00, 0x00, 0x00,
  0x04, 0x00, 0x00, 0x00, 0x00, 0x00, 0x0e, 0x00, 0x08, 0x00, 0x00, 0x00,
  0x00, 0x00, 0x00, 0x00, 0x00, 0x00, 0x04, 0x00, 0x0e, 0x00, 0x00, 0x00,
  0x01, 0x00, 0x00, 0x00, 0x01, 0x00, 0x00, 0x00, 0x15, 0x00, 0x00, 0x00,
  0x04, 0x00, 0x00, 0x00, 0x14, 0x00, 0x00, 0x00, 0x06, 0x00, 0x00, 0x00,
  0x05, 0x00, 0x00, 0x00, 0x05, 0x00, 0x00, 0x00, 0xfe, 0xfe, 0xff, 0xff,
  0x14, 0x00, 0x00, 0x00, 0x00, 0x00, 0x00, 0x37, 0x14, 0x00, 0x00, 0x00,
  0x18, 0x00, 0x00, 0x00, 0x03, 0x00, 0x00, 0x00, 0xee, 0xfe, 0xff, 0xff,
  0x00, 0x00, 0x00, 0x02, 0x01, 0x00, 0x00, 0x00, 0x14, 0x00, 0x00, 0x00,
  0x01, 0x00, 0x00, 0x00, 0x13, 0x00, 0x00, 0x00, 0x00, 0x00, 0x0a, 0x00,
  0x10, 0x00, 0x0c, 0x00, 0x08, 0x00, 0x04, 0x00, 0x0a, 0x00, 0x00, 0x00,
  0x0c, 0x00, 0x00, 0x00, 0x10, 0x00, 0x00, 0x00, 0x02, 0x00, 0x00, 0x00,
  0x01, 0x00, 0x00, 0x00, 0x13, 0x00, 0x00, 0x00, 0x01, 0x00, 0x00, 0x00,
  0x12, 0x00, 0x00, 0x00, 0x5a, 0xff, 0xff, 0xff, 0x14, 0x00, 0x00, 0x00,
  0x00, 0x00, 0x00, 0x08, 0x10, 0x00, 0x00, 0x00, 0x14, 0x00, 0x00, 0x00,
  0x01, 0x00, 0x00, 0x00, 0x18, 0xf6, 0xff, 0xff, 0x01, 0x00, 0x00, 0x00,
  0x12, 0x00, 0x00, 0x00, 0x03, 0x00, 0x00, 0x00, 0x11, 0x00, 0x00, 0x00,
  0x0d, 0x00, 0x00, 0x00, 0x02, 0x00, 0x00, 0x00, 0x8e, 0xff, 0xff, 0xff,
  0x14, 0x00, 0x00, 0x00, 0x00, 0x00, 0x00, 0x08, 0x14, 0x00, 0x00, 0x00,
  0x18, 0x00, 0x00, 0x00, 0x01, 0x00, 0x00, 0x00, 0x7e, 0xff, 0xff, 0xff,
  0x00, 0x00, 0x00, 0x01, 0x01, 0x00, 0x00, 0x00, 0x11, 0x00, 0x00, 0x00,
  0x03, 0x00, 0x00, 0x00, 0x10, 0x00, 0x00, 0x00, 0x0c, 0x00, 0x00, 0x00,
  0x03, 0x00, 0x00, 0x00, 0xc6, 0xff, 0xff, 0xff, 0x14, 0x00, 0x00, 0x00,
  0x00, 0x00, 0x00, 0x08, 0x14, 0x00, 0x00, 0x00, 0x18, 0x00, 0x00, 0x00,
  0x01, 0x00, 0x00, 0x00, 0xb6, 0xff, 0xff, 0xff, 0x00, 0x00, 0x00, 0x01,
  0x01, 0x00, 0x00, 0x00, 0x10, 0x00, 0x00, 0x00, 0x03, 0x00, 0x00, 0x00,
  0x0f, 0x00, 0x00, 0x00, 0x0b, 0x00, 0x00, 0x00, 0x04, 0x00, 0x00, 0x00,
  0x00, 0x00, 0x0e, 0x00, 0x1a, 0x00, 0x14, 0x00, 0x10, 0x00, 0x0c, 0x00,
  0x0b, 0x00, 0x04, 0x00, 0x0e, 0x00, 0x00, 0x00, 0x1c, 0x00, 0x00, 0x00,
  0x00, 0x00, 0x00, 0x08, 0x1c, 0x00, 0x00, 0x00, 0x20, 0x00, 0x00, 0x00,
  0x01, 0x00, 0x00, 0x00, 0x00, 0x00, 0x06, 0x00, 0x08, 0x00, 0x07, 0x00,
  0x06, 0x00, 0x00, 0x00, 0x00, 0x00, 0x00, 0x01, 0x01, 0x00, 0x00, 0x00,
  0x0f, 0x00, 0x00, 0x00, 0x03, 0x00, 0x00, 0x00, 0x0e, 0x00, 0x00, 0x00,
  0x0a, 0x00, 0x00, 0x00, 0x01, 0x00, 0x00, 0x00, 0x00, 0x00, 0x0a, 0x00,
  0x0c, 0x00, 0x00, 0x00, 0x08, 0x00, 0x04, 0x00, 0x0a, 0x00, 0x00, 0x00,
  0x08, 0x00, 0x00, 0x00, 0x0c, 0x00, 0x00, 0x00, 0x01, 0x00, 0x00, 0x00,
  0x0e, 0x00, 0x00, 0x00, 0x02, 0x00, 0x00, 0x00, 0x00, 0x00, 0x00, 0x00,
  0x09, 0x00, 0x00, 0x00, 0x01, 0x00, 0x00, 0x00, 0x17, 0x00, 0x00, 0x00,
  0x01, 0x00, 0x00, 0x00, 0x00, 0x00, 0x00, 0x00, 0x18, 0x00, 0x00, 0x00,
  0xa0, 0x08, 0x00, 0x00, 0x34, 0x08, 0x00, 0x00, 0xc4, 0x07, 0x00, 0x00,
  0x6c, 0x07, 0x00, 0x00, 0x14, 0x07, 0x00, 0x00, 0xb8, 0x06, 0x00, 0x00,
  0x48, 0x06, 0x00, 0x00, 0xf8, 0x05, 0x00, 0x00, 0xa8, 0x05, 0x00, 0x00,
  0x5c, 0x05, 0x00, 0x00, 0x14, 0x05, 0x00, 0x00, 0xc8, 0x04, 0x00, 0x00,
  0x7c, 0x04, 0x00, 0x00, 0x30, 0x04, 0x00, 0x00, 0xd4, 0x03, 0x00, 0x00,
  0x4c, 0x03, 0x00, 0x00, 0xbc, 0x02, 0x00, 0x00, 0x2c, 0x02, 0x00, 0x00,
  0xb4, 0x01, 0x00, 0x00, 0x58, 0x01, 0x00, 0x00, 0x0c, 0x01, 0x00, 0x00,
  0xbc, 0x00, 0x00, 0x00, 0x68, 0x00, 0x00, 0x00, 0x04, 0x00, 0x00, 0x00,
  0xd6, 0xf7, 0xff, 0xff, 0x00, 0x00, 0x00, 0x01, 0x14, 0x00, 0x00, 0x00,
  0x20, 0x00, 0x00, 0x00, 0x20, 0x00, 0x00, 0x00, 0x18, 0x00, 0x00, 0x00,
  0x38, 0x00, 0x00, 0x00, 0x03, 0x00, 0x00, 0x00, 0xff, 0xff, 0xff, 0xff,
  0x01, 0x00, 0x00, 0x00, 0xff, 0xff, 0xff, 0xff, 0xc0, 0xf7, 0xff, 0xff,
  0x19, 0x00, 0x00, 0x00, 0x53, 0x74, 0x61, 0x74, 0x65, 0x66, 0x75, 0x6c,
  0x50, 0x61, 0x72, 0x74, 0x69, 0x74, 0x69, 0x6f, 0x6e, 0x65, 0x64, 0x43,
  0x61, 0x6c, 0x6c, 0x3a, 0x30, 0x00, 0x00, 0x00, 0x03, 0x00, 0x00, 0x00,
  0x01, 0x00, 0x00, 0x00, 0x01, 0x00, 0x00, 0x00, 0x01, 0x00, 0x00, 0x00,
  0x0a, 0xfa, 0xff, 0xff, 0x00, 0x00, 0x00, 0x01, 0x14, 0x00, 0x00, 0x00,
  0x14, 0x00, 0x00, 0x00, 0x17, 0x00, 0x00, 0x00, 0x00, 0x00, 0x00, 0x02,
  0x30, 0x00, 0x00, 0x00, 0x10, 0xf8, 0xff, 0xff, 0x20, 0x00, 0x00, 0x00,
  0x73, 0x65, 0x71, 0x75, 0x65, 0x6e, 0x74, 0x69, 0x61, 0x6c, 0x2f, 0x72,
  0x65, 0x73, 0x68, 0x61, 0x70, 0x65, 0x2f, 0x52, 0x65, 0x73, 0x68, 0x61,
  0x70, 0x65, 0x2f, 0x73, 0x68, 0x61, 0x70, 0x65, 0x00, 0x00, 0x00, 0x00,
  0x01, 0x00, 0x00, 0x00, 0x03, 0x00, 0x00, 0x00, 0x5a, 0xfa, 0xff, 0xff,
  0x00, 0x00, 0x00, 0x01, 0x14, 0x00, 0x00, 0x00, 0x14, 0x00, 0x00, 0x00,
  0x16, 0x00, 0x00, 0x00, 0x00, 0x00, 0x00, 0x02, 0x30, 0x00, 0x00, 0x00,
  0x60, 0xf8, 0xff, 0xff, 0x20, 0x00, 0x00, 0x00, 0x73, 0x65, 0x71, 0x75,
  0x65, 0x6e, 0x74, 0x69, 0x61, 0x6c, 0x2f, 0x72, 0x65, 0x73, 0x68, 0x61,
  0x70, 0x65, 0x2f, 0x73, 0x74, 0x72, 0x69, 0x64, 0x65, 0x64, 0x5f, 0x73,
  0x6c, 0x69, 0x63, 0x65, 0x00, 0x00, 0x00, 0x00, 0x00, 0x00, 0x00, 0x00,
  0xa6, 0xfa, 0xff, 0xff, 0x00, 0x00, 0x00, 0x01, 0x14, 0x00, 0x00, 0x00,
  0x14, 0x00, 0x00, 0x00, 0x15, 0x00, 0x00, 0x00, 0x00, 0x00, 0x00, 0x02,
  0x28, 0x00, 0x00, 0x00, 0xac, 0xf8, 0xff, 0xff, 0x18, 0x00, 0x00, 0x00,
  0x73, 0x65, 0x71, 0x75, 0x65, 0x6e, 0x74, 0x69, 0x61, 0x6c, 0x2f, 0x72,
  0x65, 0x73, 0x68, 0x61, 0x70, 0x65, 0x2f, 0x53, 0x68, 0x61, 0x70, 0x65,
  0x00, 0x00, 0x00, 0x00, 0x01, 0x00, 0x00, 0x00, 0x02, 0x00, 0x00, 0x00,
  0x1a, 0xf9, 0xff, 0xff, 0x00, 0x00, 0x00, 0x01, 0x14, 0x00, 0x00, 0x00,
  0x1c, 0x00, 0x00, 0x00, 0x1c, 0x00, 0x00, 0x00, 0x14, 0x00, 0x00, 0x00,
  0x34, 0x00, 0x00, 0x00, 0x02, 0x00, 0x00, 0x00, 0xff, 0xff, 0xff, 0xff,
  0x01, 0x00, 0x00, 0x00, 0x00, 0xf9, 0xff, 0xff, 0x1a, 0x00, 0x00, 0x00,
  0x73, 0x65, 0x71, 0x75, 0x65, 0x6e, 0x74, 0x69, 0x61, 0x6c, 0x2f, 0x64,
  0x65, 0x6e, 0x73, 0x65, 0x5f, 0x33, 0x2f, 0x53, 0x69, 0x67, 0x6d, 0x6f,
  0x69, 0x64, 0x00, 0x00, 0x02, 0x00, 0x00, 0x00, 0x01, 0x00, 0x00, 0x00,
  0x01, 0x00, 0x00, 0x00, 0x72, 0xf9, 0xff, 0xff, 0x00, 0x00, 0x00, 0x01,
  0x14, 0x00, 0x00, 0x00, 0x1c, 0x00, 0x00, 0x00, 0x1c, 0x00, 0x00, 0x00,
  0x13, 0x00, 0x00, 0x00, 0x50, 0x00, 0x00, 0x00, 0x02, 0x00, 0x00, 0x00,
  0xff, 0xff, 0xff, 0xff, 0x01, 0x00, 0x00, 0x00, 0x58, 0xf9, 0xff, 0xff,
  0x34, 0x00, 0x00, 0x00, 0x73, 0x65, 0x71, 0x75, 0x65, 0x6e, 0x74, 0x69,
  0x61, 0x6c, 0x2f, 0x64, 0x65, 0x6e, 0x73, 0x65, 0x5f, 0x33, 0x2f, 0x4d,
  0x61, 0x74, 0x4d, 0x75, 0x6c, 0x3b, 0x73, 0x65, 0x71, 0x75, 0x65, 0x6e,
  0x74, 0x69, 0x61, 0x6c, 0x2f, 0x64, 0x65, 0x6e, 0x73, 0x65, 0x5f, 0x33,
  0x2f, 0x42, 0x69, 0x61, 0x73, 0x41, 0x64, 0x64, 0x00, 0x00, 0x00, 0x00,
  0x02, 0x00, 0x00, 0x00, 0x01, 0x00, 0x00, 0x00, 0x01, 0x00, 0x00, 0x00,
  0xe6, 0xf9, 0xff, 0xff, 0x00, 0x00, 0x00, 0x01, 0x14, 0x00, 0x00, 0x00,
  0x1c, 0x00, 0x00, 0x00, 0x1c, 0x00, 0x00, 0x00, 0x12, 0x00, 0x00, 0x00,
  0x68, 0x00, 0x00, 0x00, 0x02, 0x00, 0x00, 0x00, 0xff, 0xff, 0xff, 0xff,
  0x04, 0x00, 0x00, 0x00, 0xcc, 0xf9, 0xff, 0xff, 0x4c, 0x00, 0x00, 0x00,
  0x73, 0x65, 0x71, 0x75, 0x65, 0x6e, 0x74, 0x69, 0x61, 0x6c, 0x2f, 0x64,
  0x65, 0x6e, 0x73, 0x65, 0x5f, 0x32, 0x2f, 0x4d, 0x61, 0x74, 0x4d, 0x75,
  0x6c, 0x3b, 0x73, 0x65, 0x71, 0x75, 0x65, 0x6e, 0x74, 0x69, 0x61, 0x6c,
  0x2f, 0x64, 0x65, 0x6e, 0x73, 0x65, 0x5f, 0x32, 0x2f, 0x52, 0x65, 0x6c,
  0x75, 0x3b, 0x73, 0x65, 0x71, 0x75, 0x65, 0x6e, 0x74, 0x69, 0x61, 0x6c,
  0x2f, 0x64, 0x65, 0x6e, 0x73, 0x65, 0x5f, 0x32, 0x2f, 0x42, 0x69, 0x61,
  0x73, 0x41, 0x64, 0x64, 0x00, 0x00, 0x00, 0x00, 0x02, 0x00, 0x00, 0x00,
  0x01, 0x00, 0x00, 0x00, 0x04, 0x00, 0x00, 0x00, 0x72, 0xfa, 0xff, 0xff,
  0x00, 0x00, 0x00, 0x01, 0x14, 0x00, 0x00, 0x00, 0x1c, 0x00, 0x00, 0x00,
  0x1c, 0x00, 0x00, 0x00, 0x11, 0x00, 0x00, 0x00, 0x68, 0x00, 0x00, 0x00,
  0x02, 0x00, 0x00, 0x00, 0xff, 0xff, 0xff, 0xff, 0x08, 0x00, 0x00, 0x00,
  0x58, 0xfa, 0xff, 0xff, 0x4c, 0x00, 0x00, 0x00, 0x73, 0x65, 0x71, 0x75,
  0x65, 0x6e, 0x74, 0x69, 0x61, 0x6c, 0x2f, 0x64, 0x65, 0x6e, 0x73, 0x65,
  0x5f, 0x31, 0x2f, 0x4d, 0x61, 0x74, 0x4d, 0x75, 0x6c, 0x3b, 0x73, 0x65,
  0x71, 0x75, 0x65, 0x6e, 0x74, 0x69, 0x61, 0x6c, 0x2f, 0x64, 0x65, 0x6e,
  0x73, 0x65, 0x5f, 0x31, 0x2f, 0x52, 0x65, 0x6c, 0x75, 0x3b, 0x73, 0x65,
  0x71, 0x75, 0x65, 0x6e, 0x74, 0x69, 0x61, 0x6c, 0x2f, 0x64, 0x65, 0x6e,
  0x73, 0x65, 0x5f, 0x31, 0x2f, 0x42, 0x69, 0x61, 0x73, 0x41, 0x64, 0x64,
  0x00, 0x00, 0x00, 0x00, 0x02, 0x00, 0x00, 0x00, 0x01, 0x00, 0x00, 0x00,
  0x08, 0x00, 0x00, 0x00, 0xfe, 0xfa, 0xff, 0xff, 0x00, 0x00, 0x00, 0x01,
  0x14, 0x00, 0x00, 0x00, 0x1c, 0x00, 0x00, 0x00, 0x1c, 0x00, 0x00, 0x00,
  0x10, 0x00, 0x00, 0x00, 0x60, 0x00, 0x00, 0x00, 0x02, 0x00, 0x00, 0x00,
  0xff, 0xff, 0xff, 0xff, 0x12, 0x00, 0x00, 0x00, 0xe4, 0xfa, 0xff, 0xff,
  0x46, 0x00, 0x00, 0x00, 0x73, 0x65, 0x71, 0x75, 0x65, 0x6e, 0x74, 0x69,
  0x61, 0x6c, 0x2f, 0x64, 0x65, 0x6e, 0x73, 0x65, 0x2f, 0x4d, 0x61, 0x74,
  0x4d, 0x75, 0x6c, 0x3b, 0x73, 0x65, 0x71, 0x75, 0x65, 0x6e, 0x74, 0x69,
  0x61, 0x6c, 0x2f, 0x64, 0x65, 0x6e, 0x73, 0x65, 0x2f, 0x52, 0x65, 0x6c,
  0x75, 0x3b, 0x73, 0x65, 0x71, 0x75, 0x65, 0x6e, 0x74, 0x69, 0x61, 0x6c,
  0x2f, 0x64, 0x65, 0x6e, 0x73, 0x65, 0x2f, 0x42, 0x69, 0x61, 0x73, 0x41,
  0x64, 0x64, 0x00, 0x00, 0x02, 0x00, 0x00, 0x00, 0x01, 0x00, 0x00, 0x00,
  0x12, 0x00, 0x00, 0x00, 0x82, 0xfb, 0xff, 0xff, 0x00, 0x00, 0x00, 0x01,
  0x14, 0x00, 0x00, 0x00, 0x1c, 0x00, 0x00, 0x00, 0x1c, 0x00, 0x00, 0x00,
  0x0f, 0x00, 0x00, 0x00, 0x34, 0x00, 0x00, 0x00, 0x02, 0x00, 0x00, 0x00,
  0xff, 0xff, 0xff, 0xff, 0x03, 0x00, 0x00, 0x00, 0x68, 0xfb, 0xff, 0xff,
  0x1a, 0x00, 0x00, 0x00, 0x73, 0x65, 0x71, 0x75, 0x65, 0x6e, 0x74, 0x69,
  0x61, 0x6c, 0x2f, 0x66, 0x6c, 0x61, 0x74, 0x74, 0x65, 0x6e, 0x2f, 0x52,
  0x65, 0x73, 0x68, 0x61, 0x70, 0x65, 0x00, 0x00, 0x02, 0x00, 0x00, 0x00,
  0x01, 0x00, 0x00, 0x00, 0x03, 0x00, 0x00, 0x00, 0x42, 0xfc, 0xff, 0xff,
  0x00, 0x00, 0x00, 0x01, 0x10, 0x00, 0x00, 0x00, 0x10, 0x00, 0x00, 0x00,
  0x0e, 0x00, 0x00, 0x00, 0x28, 0x00, 0x00, 0x00, 0xb0, 0xfb, 0xff, 0xff,
  0x19, 0x00, 0x00, 0x00, 0x73, 0x65, 0x71, 0x75, 0x65, 0x6e, 0x74, 0x69,
  0x61, 0x6c, 0x2f, 0x64, 0x65, 0x6e, 0x73, 0x65, 0x5f, 0x33, 0x2f, 0x4d,
  0x61, 0x74, 0x4d, 0x75, 0x6c, 0x00, 0x00, 0x00, 0x02, 0x00, 0x00, 0x00,
  0x01, 0x00, 0x00, 0x00, 0x04, 0x00, 0x00, 0x00, 0x8a, 0xfc, 0xff, 0xff,
  0x00, 0x00, 0x00, 0x01, 0x10, 0x00, 0x00, 0x00, 0x10, 0x00, 0x00, 0x00,
  0x0d, 0x00, 0x00, 0x00, 0x28, 0x00, 0x00, 0x00, 0xf8, 0xfb, 0xff, 0xff,
  0x19, 0x00, 0x00, 0x00, 0x73, 0x65, 0x71, 0x75, 0x65, 0x6e, 0x74, 0x69,
  0x61, 0x6c, 0x2f, 0x64, 0x65, 0x6e, 0x73, 0x65, 0x5f, 0x32, 0x2f, 0x4d,
  0x61, 0x74, 0x4d, 0x75, 0x6c, 0x00, 0x00, 0x00, 0x02, 0x00, 0x00, 0x00,
  0x04, 0x00, 0x00, 0x00, 0x08, 0x00, 0x00, 0x00, 0xd2, 0xfc, 0xff, 0xff,
  0x00, 0x00, 0x00, 0x01, 0x10, 0x00, 0x00, 0x00, 0x10, 0x00, 0x00, 0x00,
  0x0c, 0x00, 0x00, 0x00, 0x28, 0x00, 0x00, 0x00, 0x40, 0xfc, 0xff, 0xff,
  0x19, 0x00, 0x00, 0x00, 0x73, 0x65, 0x71, 0x75, 0x65, 0x6e, 0x74, 0x69,
  0x61, 0x6c, 0x2f, 0x64, 0x65, 0x6e, 0x73, 0x65, 0x5f, 0x31, 0x2f, 0x4d,
  0x61, 0x74, 0x4d, 0x75, 0x6c, 0x00, 0x00, 0x00, 0x02, 0x00, 0x00, 0x00,
  0x08, 0x00, 0x00, 0x00, 0x12, 0x00, 0x00, 0x00, 0x1a, 0xfd, 0xff, 0xff,
  0x00, 0x00, 0x00, 0x01, 0x10, 0x00, 0x00, 0x00, 0x10, 0x00, 0x00, 0x00,
  0x0b, 0x00, 0x00, 0x00, 0x24, 0x00, 0x00, 0x00, 0x88, 0xfc, 0xff, 0xff,
  0x17, 0x00, 0x00, 0x00, 0x73, 0x65, 0x71, 0x75, 0x65, 0x6e, 0x74, 0x69,
  0x61, 0x6c, 0x2f, 0x64, 0x65, 0x6e, 0x73, 0x65, 0x2f, 0x4d, 0x61, 0x74,
  0x4d, 0x75, 0x6c, 0x00, 0x02, 0x00, 0x00, 0x00, 0x12, 0x00, 0x00, 0x00,
  0x03, 0x00, 0x00, 0x00, 0xca, 0xfe, 0xff, 0xff, 0x00, 0x00, 0x00, 0x01,
  0x14, 0x00, 0x00, 0x00, 0x14, 0x00, 0x00, 0x00, 0x0a, 0x00, 0x00, 0x00,
  0x00, 0x00, 0x00, 0x02, 0x28, 0x00, 0x00, 0x00, 0xd0, 0xfc, 0xff, 0xff,
  0x18, 0x00, 0x00, 0x00, 0x73, 0x65, 0x71, 0x75, 0x65, 0x6e, 0x74, 0x69,
  0x61, 0x6c, 0x2f, 0x66, 0x6c, 0x61, 0x74, 0x74, 0x65, 0x6e, 0x2f, 0x43,
  0x6f, 0x6e, 0x73, 0x74, 0x00, 0x00, 0x00, 0x00, 0x01, 0x00, 0x00, 0x00,
  0x02, 0x00, 0x00, 0x00, 0x12, 0xff, 0xff, 0xff, 0x00, 0x00, 0x00, 0x01,
  0x14, 0x00, 0x00, 0x00, 0x14, 0x00, 0x00, 0x00, 0x06, 0x00, 0x00, 0x00,
  0x00, 0x00, 0x00, 0x02, 0x30, 0x00, 0x00, 0x00, 0x18, 0xfd, 0xff, 0xff,
  0x22, 0x00, 0x00, 0x00, 0x73, 0x65, 0x71, 0x75, 0x65, 0x6e, 0x74, 0x69,
  0x61, 0x6c, 0x2f, 0x72, 0x65, 0x73, 0x68, 0x61, 0x70, 0x65, 0x2f, 0x52,
  0x65, 0x73, 0x68, 0x61, 0x70, 0x65, 0x2f, 0x73, 0x68, 0x61, 0x70, 0x65,
  0x2f, 0x31, 0x00, 0x00, 0x00, 0x00, 0x00, 0x00, 0x5e, 0xff, 0xff, 0xff,
  0x00, 0x00, 0x00, 0x01, 0x14, 0x00, 0x00, 0x00, 0x14, 0x00, 0x00, 0x00,
  0x08, 0x00, 0x00, 0x00, 0x00, 0x00, 0x00, 0x02, 0x30, 0x00, 0x00, 0x00,
  0x64, 0xfd, 0xff, 0xff, 0x22, 0x00, 0x00, 0x00, 0x73, 0x65, 0x71, 0x75,
  0x65, 0x6e, 0x74, 0x69, 0x61, 0x6c, 0x2f, 0x72, 0x65, 0x73, 0x68, 0x61,
  0x70, 0x65, 0x2f, 0x52, 0x65, 0x73, 0x68, 0x61, 0x70, 0x65, 0x2f, 0x73,
  0x68, 0x61, 0x70, 0x65, 0x2f, 0x32, 0x00, 0x00, 0x00, 0x00, 0x00, 0x00,
  0xaa, 0xff, 0xff, 0xff, 0x00, 0x00, 0x00, 0x01, 0x14, 0x00, 0x00, 0x00,
  0x14, 0x00, 0x00, 0x00, 0x07, 0x00, 0x00, 0x00, 0x00, 0x00, 0x00, 0x02,
  0x34, 0x00, 0x00, 0x00, 0xb0, 0xfd, 0xff, 0xff, 0x26, 0x00, 0x00, 0x00,
  0x73, 0x65, 0x71, 0x75, 0x65, 0x6e, 0x74, 0x69, 0x61, 0x6c, 0x2f, 0x72,
  0x65, 0x73, 0x68, 0x61, 0x70, 0x65, 0x2f, 0x73, 0x74, 0x72, 0x69, 0x64,
  0x65, 0x64, 0x5f, 0x73, 0x6c, 0x69, 0x63, 0x65, 0x2f, 0x73, 0x74, 0x61,
  0x63, 0x6b, 0x00, 0x00, 0x01, 0x00, 0x00, 0x00, 0x01, 0x00, 0x00, 0x00,
  0x00, 0x00, 0x16, 0x00, 0x1c, 0x00, 0x18, 0x00, 0x17, 0x00, 0x10, 0x00,
  0x0c, 0x00, 0x08, 0x00, 0x00, 0x00, 0x00, 0x00, 0x00, 0x00, 0x07, 0x00,
  0x16, 0x00, 0x00, 0x00, 0x00, 0x00, 0x00, 0x01, 0x14, 0x00, 0x00, 0x00,
  0x14, 0x00, 0x00, 0x00, 0x06, 0x00, 0x00, 0x00, 0x00, 0x00, 0x00, 0x02,
  0x38, 0x00, 0x00, 0x00, 0x1c, 0xfe, 0xff, 0xff, 0x28, 0x00, 0x00, 0x00,
  0x73, 0x65, 0x71, 0x75, 0x65, 0x6e, 0x74, 0x69, 0x61, 0x6c, 0x2f, 0x72,
  0x65, 0x73, 0x68, 0x61, 0x70, 0x65, 0x2f, 0x73, 0x74, 0x72, 0x69, 0x64,
  0x65, 0x64, 0x5f, 0x73, 0x6c, 0x69, 0x63, 0x65, 0x2f, 0x73, 0x74, 0x61,
  0x63, 0x6b, 0x5f, 0x31, 0x00, 0x00, 0x00, 0x00, 0x01, 0x00, 0x00, 0x00,
  0x01, 0x00, 0x00, 0x00, 0x02, 0xff, 0xff, 0xff, 0x00, 0x00, 0x00, 0x01,
  0x10, 0x00, 0x00, 0x00, 0x10, 0x00, 0x00, 0x00, 0x05, 0x00, 0x00, 0x00,
  0x38, 0x00, 0x00, 0x00, 0x70, 0xfe, 0xff, 0xff, 0x29, 0x00, 0x00, 0x00,
  0x73, 0x65, 0x71, 0x75, 0x65, 0x6e, 0x74, 0x69, 0x61, 0x6c, 0x2f, 0x64,
  0x65, 0x6e, 0x73, 0x65, 0x5f, 0x31, 0x2f, 0x42, 0x69, 0x61, 0x73, 0x41,
  0x64, 0x64, 0x2f, 0x52, 0x65, 0x61, 0x64, 0x56, 0x61, 0x72, 0x69, 0x61,
  0x62, 0x6c, 0x65, 0x4f, 0x70, 0x00, 0x00, 0x00, 0x01, 0x00, 0x00, 0x00,
  0x08, 0x00, 0x00, 0x00, 0x56, 0xff, 0xff, 0xff, 0x00, 0x00, 0x00, 0x01,
  0x10, 0x00, 0x00, 0x00, 0x10, 0x00, 0x00, 0x00, 0x04, 0x00, 0x00, 0x00,
  0x38, 0x00, 0x00, 0x00, 0xc4, 0xfe, 0xff, 0xff, 0x29, 0x00, 0x00, 0x00,
  0x73, 0x65, 0x71, 0x75, 0x65, 0x6e, 0x74, 0x69, 0x61, 0x6c, 0x2f, 0x64,
  0x65, 0x6e, 0x73, 0x65, 0x5f, 0x32, 0x2f, 0x42, 0x69, 0x61, 0x73, 0x41,
  0x64, 0x64, 0x2f, 0x52, 0x65, 0x61, 0x64, 0x56, 0x61, 0x72, 0x69, 0x61,
  0x62, 0x6c, 0x65, 0x4f, 0x70, 0x00, 0x00, 0x00, 0x01, 0x00, 0x00, 0x00,
  0x04, 0x00, 0x00, 0x00, 0xaa, 0xff, 0xff, 0xff, 0x00, 0x00, 0x00, 0x01,
  0x10, 0x00, 0x00, 0x00, 0x10, 0x00, 0x00, 0x00, 0x03, 0x00, 0x00, 0x00,
  0x38, 0x00, 0x00, 0x00, 0x18, 0xff, 0xff, 0xff, 0x29, 0x00, 0x00, 0x00,
  0x73, 0x65, 0x71, 0x75, 0x65, 0x6e, 0x74, 0x69, 0x61, 0x6c, 0x2f, 0x64,
  0x65, 0x6e, 0x73, 0x65, 0x5f, 0x33, 0x2f, 0x42, 0x69, 0x61, 0x73, 0x41,
  0x64, 0x64, 0x2f, 0x52, 0x65, 0x61, 0x64, 0x56, 0x61, 0x72, 0x69, 0x61,
  0x62, 0x6c, 0x65, 0x4f, 0x70, 0x00, 0x00, 0x00, 0x01, 0x00, 0x00, 0x00,
  0x01, 0x00, 0x00, 0x00, 0x00, 0x00, 0x16, 0x00, 0x18, 0x00, 0x14, 0x00,
  0x00, 0x00, 0x10, 0x00, 0x0c, 0x00, 0x08, 0x00, 0x00, 0x00, 0x00, 0x00,
  0x00, 0x00, 0x07, 0x00, 0x16, 0x00, 0x00, 0x00, 0x00, 0x00, 0x00, 0x01,
  0x10, 0x00, 0x00, 0x00, 0x10, 0x00, 0x00, 0x00, 0x02, 0x00, 0x00, 0x00,
  0x34, 0x00, 0x00, 0x00, 0x84, 0xff, 0xff, 0xff, 0x27, 0x00, 0x00, 0x00,
  0x73, 0x65, 0x71, 0x75, 0x65, 0x6e, 0x74, 0x69, 0x61, 0x6c, 0x2f, 0x64,
  0x65, 0x6e, 0x73, 0x65, 0x2f, 0x42, 0x69, 0x61, 0x73, 0x41, 0x64, 0x64,
  0x2f, 0x52, 0x65, 0x61, 0x64, 0x56, 0x61, 0x72, 0x69, 0x61, 0x62, 0x6c,
  0x65, 0x4f, 0x70, 0x00, 0x01, 0x00, 0x00, 0x00, 0x12, 0x00, 0x00, 0x00,
  0x00, 0x00, 0x16, 0x00, 0x1c, 0x00, 0x18, 0x00, 0x00, 0x00, 0x14, 0x00,
  0x10, 0x00, 0x0c, 0x00, 0x00, 0x00, 0x00, 0x00, 0x08, 0x00, 0x07, 0x00,
  0x16, 0x00, 0x00, 0x00, 0x00, 0x00, 0x00, 0x01, 0x14, 0x00, 0x00, 0x00,
  0x24, 0x00, 0x00, 0x00, 0x24, 0x00, 0x00, 0x00, 0x01, 0x00, 0x00, 0x00,
  0x40, 0x00, 0x00, 0x00, 0x03, 0x00, 0x00, 0x00, 0xff, 0xff, 0xff, 0xff,
  0x01, 0x00, 0x00, 0x00, 0x03, 0x00, 0x00, 0x00, 0x04, 0x00, 0x04, 0x00,
  0x04, 0x00, 0x00, 0x00, 0x1f, 0x00, 0x00, 0x00, 0x73, 0x65, 0x72, 0x76,
  0x69, 0x6e, 0x67, 0x5f, 0x64, 0x65, 0x66, 0x61, 0x75, 0x6c, 0x74, 0x5f,
  0x66, 0x6c, 0x61, 0x74, 0x74, 0x65, 0x6e, 0x5f, 0x69, 0x6e, 0x70, 0x75,
  0x74, 0x3a, 0x30, 0x00, 0x03, 0x00, 0x00, 0x00, 0x01, 0x00, 0x00, 0x00,
  0x01, 0x00, 0x00, 0x00, 0x03, 0x00, 0x00, 0x00, 0x06, 0x00, 0x00, 0x00,
  0x60, 0x00, 0x00, 0x00, 0x44, 0x00, 0x00, 0x00, 0x34, 0x00, 0x00, 0x00,
  0x24, 0x00, 0x00, 0x00, 0x14, 0x00, 0x00, 0x00, 0x04, 0x00, 0x00, 0x00,
  0xc4, 0xff, 0xff, 0xff, 0x53, 0x00, 0x00, 0x00, 0x00, 0x00, 0x00, 0x53,
  0xd0, 0xff, 0xff, 0xff, 0x2d, 0x00, 0x00, 0x00, 0x00, 0x00, 0x00, 0x2d,
  0xdc, 0xff, 0xff, 0xff, 0x4d, 0x00, 0x00, 0x00, 0x00, 0x00, 0x00, 0x4d,
  0xe8, 0xff, 0xff, 0xff, 0x0e, 0x00, 0x00, 0x00, 0x00, 0x00, 0x00, 0x0e,
  0xf4, 0xff, 0xff, 0xff, 0x09, 0x00, 0x00, 0x00, 0x00, 0x00, 0x00, 0x09,
  0x0c, 0x00, 0x0c, 0x00, 0x0b, 0x00, 0x00, 0x00, 0x00, 0x00, 0x04, 0x00,
  0x0c, 0x00, 0x00, 0x00, 0x16, 0x00, 0x00, 0x00, 0x00, 0x00, 0x00, 0x16
};

const int __model_tflite_rain_model_tflite_len = sizeof(__model_tflite_rain_model_tflite);
